TRT-7000-EntropyCalibration2
input_1: 3c010a14
conv1/convolution: 3ceb0a2e
conv1/BiasAdd: 3ceb0a2e
bn_conv1/batchnorm/mul_1: 3db4c090
bn_conv1/batchnorm/add_1: 3de96423
activation_1/Relu: 3da59ee2
block_1a_conv_1/convolution: 3e4b44d6
block_1a_conv_1/BiasAdd: 3e4b44d6
block_1a_bn_1/batchnorm/mul_1: 3e00e631
block_1a_bn_1/batchnorm/add_1: 3da95271
block_1a_relu_1/Relu: 3d1dbd56
block_1a_conv_2/convolution: 3d8bac3f
block_1a_conv_2/BiasAdd: 3d8bac3f
block_1a_bn_2/batchnorm/mul_1: 3e075db2
block_1a_bn_2/batchnorm/add_1: 3d2051df
block_1a_conv_shortcut/convolution: 3d11887c
block_1a_conv_shortcut/BiasAdd: 3d11887c
block_1a_bn_shortcut/batchnorm/mul_1: 3d45198b
block_1a_bn_shortcut/batchnorm/add_1: 3cedeb0e
add_1/add: 3d412c2d
block_1a_relu/Relu: 3d85b165
block_1b_conv_1/convolution: 3d546ffd
block_1b_conv_1/BiasAdd: 3d546ffd
block_1b_bn_1/batchnorm/mul_1: 3dc7bd8d
block_1b_bn_1/batchnorm/add_1: 3d9221e2
block_1b_relu_1/Relu: 3d516d1d
block_1b_conv_2/convolution: 3cb3e5a8
block_1b_conv_2/BiasAdd: 3cb3e5a8
block_1b_bn_2/batchnorm/mul_1: 3df338be
block_1b_bn_2/batchnorm/add_1: 3d927bb0
block_1b_conv_shortcut/convolution: 3cb6f694
block_1b_conv_shortcut/BiasAdd: 3cb6f694
block_1b_bn_shortcut/batchnorm/mul_1: 3e0c72cc
block_1b_bn_shortcut/batchnorm/add_1: 3d933bfb
add_2/add: 3e009e4e
block_1b_relu/Relu: 3dcf9226
block_2a_conv_1/convolution: 3d61fa8e
block_2a_conv_1/BiasAdd: 3d61fa8c
block_2a_bn_1/batchnorm/mul_1: 3ddcb2e6
block_2a_bn_1/batchnorm/add_1: 3d92074d
block_2a_relu_1/Relu: 3dcde2db
block_2a_conv_2/convolution: 3d330a0e
block_2a_conv_2/BiasAdd: 3d330a0e
block_2a_bn_2/batchnorm/mul_1: 3e04ed20
block_2a_bn_2/batchnorm/add_1: 3d797f24
block_2a_conv_shortcut/convolution: 3c20e530
block_2a_conv_shortcut/BiasAdd: 3c20e531
block_2a_bn_shortcut/batchnorm/mul_1: 3d6479bb
block_2a_bn_shortcut/batchnorm/add_1: 3c90626b
add_3/add: 3db805cc
block_2a_relu/Relu: 3dcecc8b
block_2b_conv_1/convolution: 3d052bf3
block_2b_conv_1/BiasAdd: 3d052bf1
block_2b_bn_1/batchnorm/mul_1: 3da1c1fa
block_2b_bn_1/batchnorm/add_1: 3db9803f
block_2b_relu_1/Relu: 3d5fd69a
block_2b_conv_2/convolution: 3c993cf3
block_2b_conv_2/BiasAdd: 3c993cf3
block_2b_bn_2/batchnorm/mul_1: 3de6bdc3
block_2b_bn_2/batchnorm/add_1: 3d54b83b
block_2b_conv_shortcut/convolution: 3c9f3f24
block_2b_conv_shortcut/BiasAdd: 3c9f3f24
block_2b_bn_shortcut/batchnorm/mul_1: 3e0c667b
block_2b_bn_shortcut/batchnorm/add_1: 3d619294
add_4/add: 3dbb28d0
block_2b_relu/Relu: 3df7740b
block_3a_conv_1/convolution: 3d5af2ee
block_3a_conv_1/BiasAdd: 3d5af2ee
block_3a_bn_1/batchnorm/mul_1: 3decec85
block_3a_bn_1/batchnorm/add_1: 3d90a007
block_3a_relu_1/Relu: 3e0ebbd0
block_3a_conv_2/convolution: 3da79f74
block_3a_conv_2/BiasAdd: 3da79f74
block_3a_bn_2/batchnorm/mul_1: 3e069d91
block_3a_bn_2/batchnorm/add_1: 3daffccf
block_3a_conv_shortcut/convolution: 3bf0c39a
block_3a_conv_shortcut/BiasAdd: 3bf0c39c
block_3a_bn_shortcut/batchnorm/mul_1: 3debffa1
block_3a_bn_shortcut/batchnorm/add_1: 3de73dd4
add_5/add: 3de3e693
block_3a_relu/Relu: 3daaf6ed
block_3b_conv_1/convolution: 3d143b0c
block_3b_conv_1/BiasAdd: 3d143b0c
block_3b_bn_1/batchnorm/mul_1: 3db34b4e
block_3b_bn_1/batchnorm/add_1: 3da96b50
block_3b_relu_1/Relu: 3da0476d
block_3b_conv_2/convolution: 3c6a3e5e
block_3b_conv_2/BiasAdd: 3c6a3e5e
block_3b_bn_2/batchnorm/mul_1: 3df2a169
block_3b_bn_2/batchnorm/add_1: 3d6724a7
block_3b_conv_shortcut/convolution: 3cae7ce8
block_3b_conv_shortcut/BiasAdd: 3cae7ce8
block_3b_bn_shortcut/batchnorm/mul_1: 3e1eab1b
block_3b_bn_shortcut/batchnorm/add_1: 3d9c5899
add_6/add: 3e06a3a9
block_3b_relu/Relu: 3dc83d56
block_4a_conv_1/convolution: 3d14f298
block_4a_conv_1/BiasAdd: 3d14f298
block_4a_bn_1/batchnorm/mul_1: 3e0b8bfc
block_4a_bn_1/batchnorm/add_1: 3df86f3e
block_4a_relu_1/Relu: 3dbdf4d9
block_4a_conv_2/convolution: 3cecbe34
block_4a_conv_2/BiasAdd: 3cecbe35
block_4a_bn_2/batchnorm/mul_1: 3e7f40d4
block_4a_bn_2/batchnorm/add_1: 3e7e2ce9
block_4a_conv_shortcut/convolution: 3c293eb8
block_4a_conv_shortcut/BiasAdd: 3c293eb7
block_4a_bn_shortcut/batchnorm/mul_1: 3e8c55f7
block_4a_bn_shortcut/batchnorm/add_1: 3e8cd754
add_7/add: 3f05e09a
block_4a_relu/Relu: 3f05e09a
block_4b_conv_1/convolution: 3e9a6774
block_4b_conv_1/BiasAdd: 3e9a6774
block_4b_bn_1/batchnorm/mul_1: 3e49f631
block_4b_bn_1/batchnorm/add_1: 3e495eab
block_4b_relu_1/Relu: 3e495eab
block_4b_conv_2/convolution: 3e8b3d46
block_4b_conv_2/BiasAdd: 3e8b3d46
block_4b_bn_2/batchnorm/mul_1: 3e0d699b
block_4b_bn_2/batchnorm/add_1: 3e0e8980
block_4b_conv_shortcut/convolution: 3e2913b7
block_4b_conv_shortcut/BiasAdd: 3e2913b7
block_4b_bn_shortcut/batchnorm/mul_1: 3db7514b
block_4b_bn_shortcut/batchnorm/add_1: 3dbaf771
add_8/add: 3e13ad84
block_4b_relu/Relu: 3dac527c
output_bbox/convolution: 3dbdcccc
output_bbox/BiasAdd: 3dc46aa1
output_cov/convolution: 3e743e90
output_cov/BiasAdd: 3e82cdd7
output_cov/Sigmoid: 3bf5ac51
