TRT-7000-EntropyCalibration2
Input: 3f9849a2
conv1/convolution: 4107007b
bn_conv1/batchnorm/mul_1: 3d4e491c
bn_conv1/batchnorm/add_1: 3d80f1dc
activation_1/Relu: 3d80f1dc
block_1a_conv_1/convolution: 3e30ee6d
block_1a_bn_1/batchnorm/mul_1: 3ded2f3a
block_1a_bn_1/batchnorm/add_1: 3d74b7d9
block_1a_relu_1/Relu: 3d486532
block_1a_conv_2/convolution: 3e08094d
block_1a_bn_2/batchnorm/mul_1: 3e180bb0
block_1a_bn_2/batchnorm/add_1: 3de51e76
block_1a_conv_shortcut/convolution: 3d5b122e
block_1a_bn_shortcut/batchnorm/mul_1: 3e047557
block_1a_bn_shortcut/batchnorm/add_1: 3d9b8b3d
add_1/add: 3e278eba
block_1a_relu/Relu: 3e278848
block_1b_conv_1/convolution: 3ea3798b
block_1b_bn_1/batchnorm/mul_1: 3dd1da43
block_1b_bn_1/batchnorm/add_1: 3dc6fe81
block_1b_relu_1/Relu: 3d84f267
block_1b_conv_2/convolution: 3dd148a0
block_1b_bn_2/batchnorm/mul_1: 3dfe5d02
block_1b_bn_2/batchnorm/add_1: 3de2ed47
block_1b_conv_shortcut/convolution: 3e0e523d
block_1b_bn_shortcut/batchnorm/mul_1: 3dcf42ca
block_1b_bn_shortcut/batchnorm/add_1: 3dd1db6f
add_2/add: 3e1863fd
block_1b_relu/Relu: 3e0e6372
block_2a_conv_1/convolution: 3e3f1d59
block_2a_bn_1/batchnorm/mul_1: 3dd65a90
block_2a_bn_1/batchnorm/add_1: 3dc2d12f
block_2a_relu_1/Relu: 3db13a45
block_2a_conv_2/convolution: 3e267ff4
block_2a_bn_2/batchnorm/mul_1: 3e0b6543
block_2a_bn_2/batchnorm/add_1: 3de7f369
block_2a_conv_shortcut/convolution: 3d8a80f2
block_2a_bn_shortcut/batchnorm/mul_1: 3d5db846
block_2a_bn_shortcut/batchnorm/add_1: 3d28ff22
add_3/add: 3deced2f
block_2a_relu/Relu: 3decfbb9
block_2b_conv_1/convolution: 3dbbe0bd
block_2b_bn_1/batchnorm/mul_1: 3dcc91f9
block_2b_bn_1/batchnorm/add_1: 3d9b6119
block_2b_relu_1/Relu: 3d5b8d15
block_2b_conv_2/convolution: 3d075e43
block_2b_bn_2/batchnorm/mul_1: 3e1b37f4
block_2b_bn_2/batchnorm/add_1: 3e16b7a9
block_2b_conv_shortcut/convolution: 3da27e84
block_2b_bn_shortcut/batchnorm/mul_1: 3dbba0f2
block_2b_bn_shortcut/batchnorm/add_1: 3d9bd1b8
add_4/add: 3e297ab6
block_2b_relu/Relu: 3e307bbf
block_3a_conv_1/convolution: 3e2b197f
block_3a_bn_1/batchnorm/mul_1: 3dbd9442
block_3a_bn_1/batchnorm/add_1: 3db1456d
block_3a_relu_1/Relu: 3dc55adb
block_3a_conv_2/convolution: 3db9cdcc
block_3a_bn_2/batchnorm/mul_1: 3df82403
block_3a_bn_2/batchnorm/add_1: 3dedacd4
block_3a_conv_shortcut/convolution: 3d4c96f1
block_3a_bn_shortcut/batchnorm/mul_1: 3d1e83b2
block_3a_bn_shortcut/batchnorm/add_1: 3cc3a0c5
add_5/add: 3e09bae7
block_3a_relu/Relu: 3e10c752
block_3b_conv_1/convolution: 3e0c7f4d
block_3b_bn_1/batchnorm/mul_1: 3db48828
block_3b_bn_1/batchnorm/add_1: 3da3f5a3
block_3b_relu_1/Relu: 3d675318
block_3b_conv_2/convolution: 3cfcc863
block_3b_bn_2/batchnorm/mul_1: 3dadc05e
block_3b_bn_2/batchnorm/add_1: 3d99abe9
block_3b_conv_shortcut/convolution: 3da99ac5
block_3b_bn_shortcut/batchnorm/mul_1: 3dc55005
block_3b_bn_shortcut/batchnorm/add_1: 3da05ff7
add_6/add: 3def1a44
block_3b_relu/Relu: 3dbda969
block_4a_conv_1/convolution: 3daaeca2
block_4a_bn_1/batchnorm/mul_1: 3d844130
block_4a_bn_1/batchnorm/add_1: 3d7d08f4
block_4a_relu_1/Relu: 3d2a9650
block_4a_conv_2/convolution: 3cb9801c
block_4a_bn_2/batchnorm/mul_1: 3db0a3b7
block_4a_bn_2/batchnorm/add_1: 3da61b48
block_4a_conv_shortcut/convolution: 3d83cfbe
block_4a_bn_shortcut/batchnorm/mul_1: 3d6cecfc
block_4a_bn_shortcut/batchnorm/add_1: 3d632e15
add_7/add: 3dc4977c
block_4a_relu/Relu: 3db1070f
block_4b_conv_1/convolution: 3d6fe174
block_4b_bn_1/batchnorm/mul_1: 3d9ae75c
block_4b_bn_1/batchnorm/add_1: 3d9af8d8
block_4b_relu_1/Relu: 3d65a410
block_4b_conv_2/convolution: 3cdabb6d
block_4b_bn_2/batchnorm/mul_1: 3e5df34d
block_4b_bn_2/batchnorm/add_1: 3e3fcc12
block_4b_conv_shortcut/convolution: 3cc5d960
block_4b_bn_shortcut/batchnorm/mul_1: 3de61b2c
block_4b_bn_shortcut/batchnorm/add_1: 3dd63d07
add_8/add: 3e57f23f
block_4b_relu/Relu: 3e57f23f
expand_conv1/convolution: 3d91af5d
expand_conv1/BiasAdd: 3d105bf5
expand1_relu/Relu: 3d7bfd90
C5_reduced/convolution: 3cd2cded
C5_reduced/BiasAdd: 3cd46257
(Unnamed Layer* 372) [Deconvolution]_output: 3cd46257
P5_upsampled/conv2d_transpose: 3cd46257
P5_upsampled/BiasAdd: 3cd46257
C4_reduced/convolution: 3cff3183
C4_reduced/BiasAdd: 3d067517
P4_merged/add: 3d4b67a8
(Unnamed Layer* 394) [Deconvolution]_output: 3d4b67a8
P4_upsampled/conv2d_transpose: 3d4b67a8
P4_upsampled/BiasAdd: 3d4b67a8
C3_reduced/convolution: 3d0649c8
C3_reduced/BiasAdd: 3d053e23
P3_merged/add: 3d6db4d2
P3/convolution: 3d7da0e9
P3/BiasAdd: 3d7d7b88
P3_bn/batchnorm/mul_1: 3d9ad373
P3_bn/batchnorm/add_1: 3d8c779d
P3_relu/Relu: 3d4d0e8f
loc_submodule/retinanet_loc_subn_0/convolution: 3f0b9435
loc_submodule/retinanet_loc_subn_0/BiasAdd: 3eec4031
loc_submodule/retinanet_loc_subn_0/Relu: 3d746195
loc_submodule/retinanet_loc_regressor/convolution: 3dc51163
loc_submodule/retinanet_loc_regressor/BiasAdd: 3dc9a790
retinanet_anchor_0/Const: 3a4fa4b3
FirstDimTile_0: 3a4fa4b3
anchor_reshape_0/Reshape: 3a4f32f8
P4/convolution: 3d085cba
P4/BiasAdd: 3d085cb7
P4_bn/batchnorm/mul_1: 3d764be7
P4_bn/batchnorm/add_1: 3d527608
P4_relu/Relu: 3d550b3f
loc_submodule_1/retinanet_loc_subn_0/convolution: 3f08aeba
loc_submodule_1/retinanet_loc_subn_0/BiasAdd: 3ef470d2
loc_submodule_1/retinanet_loc_subn_0/Relu: 3d196f86
loc_submodule_1/retinanet_loc_regressor/convolution: 3d5928e5
loc_submodule_1/retinanet_loc_regressor/BiasAdd: 3d5f96d0
retinanet_anchor_1/Const: 3a4f790d
FirstDimTile_1: 3a4f790d
anchor_reshape_1/Reshape: 3a4f32f8
P5/convolution: 3c2ef7d0
P5/BiasAdd: 3c2ef7d0
P5_bn/batchnorm/mul_1: 3d8a0548
P5_bn/batchnorm/add_1: 3d833196
P5_relu/Relu: 3d846eb2
loc_submodule_2/retinanet_loc_subn_0/convolution: 3eed1f12
loc_submodule_2/retinanet_loc_subn_0/BiasAdd: 3edbd19b
loc_submodule_2/retinanet_loc_subn_0/Relu: 3cf8d2e0
loc_submodule_2/retinanet_loc_regressor/convolution: 3d307274
loc_submodule_2/retinanet_loc_regressor/BiasAdd: 3d247aa7
retinanet_anchor_2/Const: 3a4fc3c9
FirstDimTile_2: 3a4fc3c9
anchor_reshape_2/Reshape: 3a4f32f8
P6/convolution: 3cb5f174
P6/BiasAdd: 3c7f9a83
P6_relu/Relu: 3cdd5475
loc_submodule_3/retinanet_loc_subn_0/convolution: 3d0acd16
loc_submodule_3/retinanet_loc_subn_0/BiasAdd: 3d12c2cc
loc_submodule_3/retinanet_loc_subn_0/Relu: 3cc8be70
loc_submodule_3/retinanet_loc_regressor/convolution: 3d0e494e
loc_submodule_3/retinanet_loc_regressor/BiasAdd: 3d0fc3cc
retinanet_anchor_3/Const: 3a4f21df
FirstDimTile_3: 3a4f21df
anchor_reshape_3/Reshape: 3a4f32f8
P7/convolution: 3c2e3122
P7/BiasAdd: 3c28ab82
P7_relu/Relu: 3c40c092
loc_submodule_4/retinanet_loc_subn_0/convolution: 3cd89016
loc_submodule_4/retinanet_loc_subn_0/BiasAdd: 3cdca0c3
loc_submodule_4/retinanet_loc_subn_0/Relu: 3cbf7c95
loc_submodule_4/retinanet_loc_regressor/convolution: 3d0a7c6f
loc_submodule_4/retinanet_loc_regressor/BiasAdd: 3d37a42c
retinanet_anchor_4/Const: 3a4f32f8
FirstDimTile_4: 3a4f32f8
anchor_reshape_4/Reshape: 3a4f32f8
mbox_priorbox/concat: 3a4f32f8
anchor_reshape/Reshape: 3a4f32f8
anchor_permute/transpose: 3a4f32f8
(Unnamed Layer* 550) [Shuffle]_output: 3a4f32f8
anchor_data/Reshape: 3a4f32f8
permute_2/transpose: 3dc9a790
(Unnamed Layer* 559) [Shuffle]_output: 3dc9a790
loc_reshape_0/Reshape: 3dc9a790
permute_4/transpose: 3d5f96d0
(Unnamed Layer* 568) [Shuffle]_output: 3d5f96d0
loc_reshape_1/Reshape: 3dc9a790
permute_6/transpose: 3d247aa7
(Unnamed Layer* 577) [Shuffle]_output: 3d247aa7
loc_reshape_2/Reshape: 3dc9a790
permute_8/transpose: 3d0fc3cc
(Unnamed Layer* 586) [Shuffle]_output: 3d0fc3cc
loc_reshape_3/Reshape: 3dc9a790
permute_10/transpose: 3d37a42c
(Unnamed Layer* 595) [Shuffle]_output: 3d37a42c
loc_reshape_4/Reshape: 3dc9a790
mbox_loc/concat: 3dc9a790
loc_data/Reshape: 3dc9a790
class_submodule/retinanet_class_subn_0/convolution: 3e64c0d2
class_submodule/retinanet_class_subn_0/BiasAdd: 3e6b48cb
class_submodule/retinanet_class_subn_0/Relu: 3e6b019d
class_submodule/retinanet_conf_regressor/convolution: 3ee46834
class_submodule/retinanet_conf_regressor/BiasAdd: 3ef4a5cb
permute_1/transpose: 3ef4a5cb
(Unnamed Layer* 621) [Shuffle]_output: 3ef4a5cb
conf_reshape_0/Reshape: 3ef37acb
class_submodule_1/retinanet_class_subn_0/convolution: 3e76d6a0
class_submodule_1/retinanet_class_subn_0/BiasAdd: 3e755ab8
class_submodule_1/retinanet_class_subn_0/Relu: 3e755ab8
class_submodule_1/retinanet_conf_regressor/convolution: 3f087aa8
class_submodule_1/retinanet_conf_regressor/BiasAdd: 3f0fdbdb
permute_3/transpose: 3f0fdbdb
(Unnamed Layer* 635) [Shuffle]_output: 3f0fdbdb
conf_reshape_1/Reshape: 3ef37acb
class_submodule_2/retinanet_class_subn_0/convolution: 3e7208c9
class_submodule_2/retinanet_class_subn_0/BiasAdd: 3e6d4e2a
class_submodule_2/retinanet_class_subn_0/Relu: 3e701f81
class_submodule_2/retinanet_conf_regressor/convolution: 3ebd350c
class_submodule_2/retinanet_conf_regressor/BiasAdd: 3ecf73c1
permute_5/transpose: 3ecf73c1
(Unnamed Layer* 649) [Shuffle]_output: 3ecf73c1
conf_reshape_2/Reshape: 3ef37acb
class_submodule_3/retinanet_class_subn_0/convolution: 3cb738c6
class_submodule_3/retinanet_class_subn_0/BiasAdd: 3cbd363d
class_submodule_3/retinanet_class_subn_0/Relu: 3cbd3009
class_submodule_3/retinanet_conf_regressor/convolution: 3d7506c7
class_submodule_3/retinanet_conf_regressor/BiasAdd: 3dbcc329
permute_7/transpose: 3dbcc329
(Unnamed Layer* 663) [Shuffle]_output: 3dbcc329
conf_reshape_3/Reshape: 3ef37acb
class_submodule_4/retinanet_class_subn_0/convolution: 3c9bdd6a
class_submodule_4/retinanet_class_subn_0/BiasAdd: 3c973d44
class_submodule_4/retinanet_class_subn_0/Relu: 3c973d44
class_submodule_4/retinanet_conf_regressor/convolution: 3d510e01
class_submodule_4/retinanet_conf_regressor/BiasAdd: 3db05ef0
permute_9/transpose: 3db05ef0
(Unnamed Layer* 677) [Shuffle]_output: 3db05ef0
conf_reshape_4/Reshape: 3ef37acb
mbox_conf/concat: 3ef37acb
conf_data/Reshape: 3ef37acb
NMS: 3cc18f1e
NMS_1: 30810204
