TRT-7000-EntropyCalibration2
Input: 3f9849a2
conv1/convolution: 414c3baa
bn_conv1/batchnorm/mul_1: 3dafe7b7
bn_conv1/batchnorm/add_1: 3d8f9d29
activation_3/Relu: 3d1a2ff4
block_1a_conv_1/convolution: 3eccc5af
block_1a_bn_1/batchnorm/mul_1: 3e0307ff
block_1a_bn_1/batchnorm/add_1: 3dae7223
block_1a_relu_1/Relu: 3d8189fe
block_1a_conv_2/convolution: 3e8f3218
block_1a_bn_2/batchnorm/mul_1: 3dcffa70
block_1a_bn_2/batchnorm/add_1: 3ddf50be
block_1a_conv_shortcut/convolution: 3db88044
block_1a_bn_shortcut/batchnorm/mul_1: 3df652db
block_1a_bn_shortcut/batchnorm/add_1: 3e0c5a64
add_17/add: 3e38f29d
block_1a_relu/Relu: 3e175c68
block_1b_conv_1/convolution: 3f0a2ac8
block_1b_bn_1/batchnorm/mul_1: 3dd0c97f
block_1b_bn_1/batchnorm/add_1: 3de5b3c4
block_1b_relu_1/Relu: 3d4b9604
block_1b_conv_2/convolution: 3e750564
block_1b_bn_2/batchnorm/mul_1: 3df53980
block_1b_bn_2/batchnorm/add_1: 3e0b4ba2
block_1b_conv_shortcut/convolution: 3e05f717
block_1b_bn_shortcut/batchnorm/mul_1: 3dc5ce84
block_1b_bn_shortcut/batchnorm/add_1: 3d964eaa
add_18/add: 3e16c348
block_1b_relu/Relu: 3e071058
block_2a_conv_1/convolution: 3f30817e
block_2a_bn_1/batchnorm/mul_1: 3ddca0fa
block_2a_bn_1/batchnorm/add_1: 3d967da6
block_2a_relu_1/Relu: 3dee734d
block_2a_conv_2/convolution: 3f354e6b
block_2a_bn_2/batchnorm/mul_1: 3e15a37b
block_2a_bn_2/batchnorm/add_1: 3dd32521
block_2a_conv_shortcut/convolution: 3e09ad2e
block_2a_bn_shortcut/batchnorm/mul_1: 3d3e2f62
block_2a_bn_shortcut/batchnorm/add_1: 3d210058
add_19/add: 3e0a042f
block_2a_relu/Relu: 3ddcc6bf
block_2b_conv_1/convolution: 3f2643ed
block_2b_bn_1/batchnorm/mul_1: 3da91f6c
block_2b_bn_1/batchnorm/add_1: 3d7886d5
block_2b_relu_1/Relu: 3d436e62
block_2b_conv_2/convolution: 3e1d637e
block_2b_bn_2/batchnorm/mul_1: 3e070fbc
block_2b_bn_2/batchnorm/add_1: 3dd6ea84
block_2b_conv_shortcut/convolution: 3e4e2f39
block_2b_bn_shortcut/batchnorm/mul_1: 3dab3520
block_2b_bn_shortcut/batchnorm/add_1: 3d776817
add_20/add: 3df4710a
block_2b_relu/Relu: 3dadec4d
block_3a_conv_1/convolution: 3f5576a7
block_3a_bn_1/batchnorm/mul_1: 3dd667f9
block_3a_bn_1/batchnorm/add_1: 3d9b12d7
block_3a_relu_1/Relu: 3dd36d10
block_3a_conv_2/convolution: 3ed59ae4
block_3a_bn_2/batchnorm/mul_1: 3e0c440d
block_3a_bn_2/batchnorm/add_1: 3deff64e
block_3a_conv_shortcut/convolution: 3e18fbe2
block_3a_bn_shortcut/batchnorm/mul_1: 3d4d3ab1
block_3a_bn_shortcut/batchnorm/add_1: 3cdf183c
add_21/add: 3db14412
block_3a_relu/Relu: 3e19bc72
block_3b_conv_1/convolution: 3f20f1bc
block_3b_bn_1/batchnorm/mul_1: 3da160c2
block_3b_bn_1/batchnorm/add_1: 3d3fb337
block_3b_relu_1/Relu: 3d867228
block_3b_conv_2/convolution: 3e1fb9dd
block_3b_bn_2/batchnorm/mul_1: 3dc46b0a
block_3b_bn_2/batchnorm/add_1: 3ddeac45
block_3b_conv_shortcut/convolution: 3e340d92
block_3b_bn_shortcut/batchnorm/mul_1: 3dc7ec52
block_3b_bn_shortcut/batchnorm/add_1: 3dd07e86
add_22/add: 3e0f819e
block_3b_relu/Relu: 3da1177c
block_4a_conv_1/convolution: 3f0fc34f
block_4a_bn_1/batchnorm/mul_1: 3da8be7b
block_4a_bn_1/batchnorm/add_1: 3d5a3600
block_4a_relu_1/Relu: 3d91d12f
block_4a_conv_2/convolution: 3e119e19
block_4a_bn_2/batchnorm/mul_1: 3dd2896b
block_4a_bn_2/batchnorm/add_1: 3d66dfd1
block_4a_conv_shortcut/convolution: 3e0fa20f
block_4a_bn_shortcut/batchnorm/mul_1: 3dc51573
block_4a_bn_shortcut/batchnorm/add_1: 3d88b101
add_23/add: 3ddc248a
block_4a_relu/Relu: 3e03f53d
block_4b_conv_1/convolution: 3ee04d3f
block_4b_bn_1/batchnorm/mul_1: 3ddba380
block_4b_bn_1/batchnorm/add_1: 3d822fbe
block_4b_relu_1/Relu: 3db001cc
block_4b_conv_2/convolution: 3e487155
block_4b_bn_2/batchnorm/mul_1: 3e80357e
block_4b_bn_2/batchnorm/add_1: 3df7a11f
block_4b_conv_shortcut/convolution: 3dcd6744
block_4b_bn_shortcut/batchnorm/mul_1: 3e1d8448
block_4b_bn_shortcut/batchnorm/add_1: 3d9cd658
add_24/add: 3e1504cf
block_4b_relu/Relu: 3e8f33f0
expand_conv1/convolution: 3f6eb979
expand_conv1_bn/batchnorm/mul_1: 3dd355a4
expand_conv1_bn/batchnorm/add_1: 3db01d46
expand_conv1_lrelu/LeakyRelu: 3d862bc8
yolo_conv1_1/convolution: 3e11dd2f
yolo_conv1_1_bn/batchnorm/mul_1: 3dd77546
yolo_conv1_1_bn/batchnorm/add_1: 3de0e45f
yolo_conv1_1_lrelu/LeakyRelu: 3d65f825
yolo_conv1_2/convolution: 3ec96567
yolo_conv1_2_bn/batchnorm/mul_1: 3dcac5c9
yolo_conv1_2_bn/batchnorm/add_1: 3d9f7c81
yolo_conv1_2_lrelu/LeakyRelu: 3d81390e
yolo_conv1_3/convolution: 3de1ea83
yolo_conv1_3_bn/batchnorm/mul_1: 3dd348a9
yolo_conv1_3_bn/batchnorm/add_1: 3dccfc55
yolo_conv1_3_lrelu/LeakyRelu: 3d60e4d4
yolo_conv1_4/convolution: 3eb5e18c
yolo_conv1_4_bn/batchnorm/mul_1: 3db1f737
yolo_conv1_4_bn/batchnorm/add_1: 3db1cb69
yolo_conv1_4_lrelu/LeakyRelu: 3d567c4d
yolo_conv1_5/convolution: 3dbcb29a
yolo_conv1_5_bn/batchnorm/mul_1: 3deb6595
yolo_conv1_5_bn/batchnorm/add_1: 3dcda445
yolo_conv1_5_lrelu/LeakyRelu: 3d51e993
yolo_conv1_6/convolution: 3ee2d550
yolo_conv1_6_bn/batchnorm/mul_1: 3dd44748
yolo_conv1_6_bn/batchnorm/add_1: 3dc47675
yolo_conv1_6_lrelu/LeakyRelu: 3d79c9da
conv_big_object/convolution: 3e8d5296
conv_big_object/BiasAdd: 3e9deed0
bg_anchor/Const: 4045c0ba
FirstDimTile_0: 3e822138
bg_permute/transpose: 3e9deed0
(Unnamed Layer* 461) [Shuffle]_output: 3e9deed0
bg_reshape/Reshape: 3e822138
encoded_bg/concat: 3e9f79fe
yolo_conv2/convolution: 3dbf2963
yolo_conv2_bn/batchnorm/mul_1: 3dbc6bb4
yolo_conv2_bn/batchnorm/add_1: 3da891e1
yolo_conv2_lrelu/LeakyRelu: 3d332c1e
upsample0/transpose: 3d332c1e
upsample0/ResizeNearestNeighbor: 3d332c1e
upsample0/transpose_1: 3da1177c
concatenate_5/concat: 3da1177c
yolo_conv3_1/convolution: 3e175cd2
yolo_conv3_1_bn/batchnorm/mul_1: 3d99de3a
yolo_conv3_1_bn/batchnorm/add_1: 3d920c28
yolo_conv3_1_lrelu/LeakyRelu: 3d071092
yolo_conv3_2/convolution: 3e992f61
yolo_conv3_2_bn/batchnorm/mul_1: 3da26806
yolo_conv3_2_bn/batchnorm/add_1: 3d9343ba
yolo_conv3_2_lrelu/LeakyRelu: 3d218e22
yolo_conv3_3/convolution: 3da2ad16
yolo_conv3_3_bn/batchnorm/mul_1: 3dae8331
yolo_conv3_3_bn/batchnorm/add_1: 3dba76f3
yolo_conv3_3_lrelu/LeakyRelu: 3d1f14ec
yolo_conv3_4/convolution: 3ea39b2b
yolo_conv3_4_bn/batchnorm/mul_1: 3da5ed67
yolo_conv3_4_bn/batchnorm/add_1: 3d93af9b
yolo_conv3_4_lrelu/LeakyRelu: 3d3ba0de
yolo_conv3_5/convolution: 3ddb68e0
yolo_conv3_5_bn/batchnorm/mul_1: 3db30b61
yolo_conv3_5_bn/batchnorm/add_1: 3dc26498
yolo_conv3_5_lrelu/LeakyRelu: 3d32cf57
yolo_conv3_6/convolution: 3ed673d7
yolo_conv3_6_bn/batchnorm/mul_1: 3dc6818a
yolo_conv3_6_bn/batchnorm/add_1: 3dac8128
yolo_conv3_6_lrelu/LeakyRelu: 3d6b0bc7
conv_mid_object/convolution: 3e6d99e5
conv_mid_object/BiasAdd: 3e8318da
md_anchor/Const: 3f47ba8f
FirstDimTile_1: 3e01accd
md_permute/transpose: 3e8318da
(Unnamed Layer* 583) [Shuffle]_output: 3e8318da
md_reshape/Reshape: 3e01accd
encoded_md/concat: 3e9f79fe
yolo_conv4/convolution: 3da7fe53
yolo_conv4_bn/batchnorm/mul_1: 3db5290c
yolo_conv4_bn/batchnorm/add_1: 3db1bf99
yolo_conv4_lrelu/LeakyRelu: 3d656807
upsample1/transpose: 3d656807
upsample1/ResizeNearestNeighbor: 3d656807
upsample1/transpose_1: 3dadec4d
concatenate_6/concat: 3dadec4d
yolo_conv5_1/convolution: 3e314988
yolo_conv5_1_bn/batchnorm/mul_1: 3da11110
yolo_conv5_1_bn/batchnorm/add_1: 3d92e6d0
yolo_conv5_1_lrelu/LeakyRelu: 3d2fd31c
yolo_conv5_2/convolution: 3e9aead5
yolo_conv5_2_bn/batchnorm/mul_1: 3dbe1b3a
yolo_conv5_2_bn/batchnorm/add_1: 3d8851b2
yolo_conv5_2_lrelu/LeakyRelu: 3d18d6f9
yolo_conv5_3/convolution: 3d8e2d0e
yolo_conv5_3_bn/batchnorm/mul_1: 3d89c00c
yolo_conv5_3_bn/batchnorm/add_1: 3d8d306e
yolo_conv5_3_lrelu/LeakyRelu: 3d1aec6d
yolo_conv5_4/convolution: 3e90b8b3
yolo_conv5_4_bn/batchnorm/mul_1: 3d9f6e10
yolo_conv5_4_bn/batchnorm/add_1: 3da1078c
yolo_conv5_4_lrelu/LeakyRelu: 3d288273
yolo_conv5_5/convolution: 3dd1e5e4
yolo_conv5_5_bn/batchnorm/mul_1: 3d9fa953
yolo_conv5_5_bn/batchnorm/add_1: 3d9e8eca
yolo_conv5_5_lrelu/LeakyRelu: 3d2a9fce
yolo_conv5_6/convolution: 3e9973b0
yolo_conv5_6_bn/batchnorm/mul_1: 3d9606bd
yolo_conv5_6_bn/batchnorm/add_1: 3d7f26d8
yolo_conv5_6_lrelu/LeakyRelu: 3d46ea4e
conv_sm_object/convolution: 3e668339
conv_sm_object/BiasAdd: 3e70250e
sm_anchor/Const: 3d81c68d
FirstDimTile_2: 3d81c68d
sm_permute/transpose: 3e70250e
(Unnamed Layer* 705) [Shuffle]_output: 3e70250e
sm_reshape/Reshape: 3d81c68d
encoded_sm/concat: 3e9f79fe
encoded_detections/concat: 3e9f79fe
box/strided_slice_2: 3f6feebd
box/strided_slice_3: 3d1565cc
box/Sigmoid_1: 3c00e44e
box/add_1: 3fac05e4
box/strided_slice_8: 3e810a14
box/mul_2: 412cbb2d
box/strided_slice_6: 3f477657
box/strided_slice_7: 3ce01d60
box/Exp_1: 3d032341
box/mul_1: 40a750cc
box/mul_3: 402750cc
box/sub: 41166ead
box/strided_slice: 3f07168d
box/strided_slice_1: 3d190d0a
box/Sigmoid: 3bff3518
box/add: 3f0a07c5
box/strided_slice_10: 3e810a14
box/mul_6: 408a07c5
box/strided_slice_4: 4045c0ba
box/strided_slice_5: 3ce24038
box/Exp: 3d17b670
box/mul: 40806709
box/mul_7: 40006709
box/sub_1: 41166ead
box/strided_slice_9: 3e810a14
box/mul_4: 412cbb2d
box/mul_5: 402750cc
box/add_2: 41166ead
box/strided_slice_11: 3e810a14
box/mul_8: 408a07c5
box/mul_9: 40006709
box/add_3: 41166ead
box/concat: 41166ead
box/Reshape: 41166ead
cls/strided_slice: 3ea7a0d5
cls/Sigmoid: 3c010a14
cls/strided_slice_1: 3e97e236
cls/Sigmoid_1: 3c011121
cls/mul: 3c011113
cls/Reshape: 3c011113
BatchedNMS: 3fcbee9d
BatchedNMS_1: 40f220cd
BatchedNMS_2: 3c021315
BatchedNMS_3: 3cc18f1e
