TRT-7000-EntropyCalibration2
Input: 3f9849a2
conv1/convolution: 412df524
bn_conv1/batchnorm/mul_1: 3d992c68
bn_conv1/batchnorm/add_1: 3dc1247b
activation_3/Relu: 3d868d67
block_1a_conv_1/convolution: 3ea0546b
block_1a_bn_1/batchnorm/mul_1: 3e06ae17
block_1a_bn_1/batchnorm/add_1: 3ddd10a3
block_1a_relu_1/Relu: 3d29eb4c
block_1a_conv_2/convolution: 3e1f1257
block_1a_bn_2/batchnorm/mul_1: 3df42021
block_1a_bn_2/batchnorm/add_1: 3de882b6
block_1a_conv_shortcut/convolution: 3dab7312
block_1a_bn_shortcut/batchnorm/mul_1: 3df342d7
block_1a_bn_shortcut/batchnorm/add_1: 3d9e55b5
add_17/add: 3e17d995
block_1a_relu/Relu: 3df57bb6
block_1b_conv_1/convolution: 3e9376d3
block_1b_bn_1/batchnorm/mul_1: 3e08c27d
block_1b_bn_1/batchnorm/add_1: 3dad02a6
block_1b_relu_1/Relu: 3d5b3452
block_1b_conv_2/convolution: 3e0c72ee
block_1b_bn_2/batchnorm/mul_1: 3e1dbe0b
block_1b_bn_2/batchnorm/add_1: 3e0fb202
block_1b_conv_shortcut/convolution: 3de76cc1
block_1b_bn_shortcut/batchnorm/mul_1: 3dafc7a4
block_1b_bn_shortcut/batchnorm/add_1: 3da733e4
add_18/add: 3e2927e2
block_1b_relu/Relu: 3dca3694
block_2a_conv_1/convolution: 3e8adca6
block_2a_bn_1/batchnorm/mul_1: 3dee42e0
block_2a_bn_1/batchnorm/add_1: 3da69dbd
block_2a_relu_1/Relu: 3d8c653b
block_2a_conv_2/convolution: 3e367f5f
block_2a_bn_2/batchnorm/mul_1: 3e060d4a
block_2a_bn_2/batchnorm/add_1: 3de8926f
block_2a_conv_shortcut/convolution: 3d705fcc
block_2a_bn_shortcut/batchnorm/mul_1: 3d661ef3
block_2a_bn_shortcut/batchnorm/add_1: 3d45a6f6
add_19/add: 3e0bb8d3
block_2a_relu/Relu: 3da9b485
block_2b_conv_1/convolution: 3e80240b
block_2b_bn_1/batchnorm/mul_1: 3db87c1e
block_2b_bn_1/batchnorm/add_1: 3d8c91dc
block_2b_relu_1/Relu: 3d67cca0
block_2b_conv_2/convolution: 3dfb9a81
block_2b_bn_2/batchnorm/mul_1: 3dd17824
block_2b_bn_2/batchnorm/add_1: 3dd096a8
block_2b_conv_shortcut/convolution: 3e0d55cd
block_2b_bn_shortcut/batchnorm/mul_1: 3d1edde8
block_2b_bn_shortcut/batchnorm/add_1: 3d0f1617
add_20/add: 3dda7681
block_2b_relu/Relu: 3d480cca
ssd_loc_0/convolution: 3db07b16
ssd_loc_0/BiasAdd: 3dcb615c
ssd_anchor_0/Const: 3a4f05e2
FirstDimTile_0: 3a4f05e2
anchor_reshape_0/Reshape: 3a502da5
block_3a_conv_1/convolution: 3d183560
block_3a_bn_1/batchnorm/mul_1: 3d95a045
block_3a_bn_1/batchnorm/add_1: 3d944671
block_3a_relu_1/Relu: 3d58bea6
block_3a_conv_2/convolution: 3d9abbb7
block_3a_bn_2/batchnorm/mul_1: 3dc58308
block_3a_bn_2/batchnorm/add_1: 3dc9d203
block_3a_conv_shortcut/convolution: 3ca195b7
block_3a_bn_shortcut/batchnorm/mul_1: 3d90245a
block_3a_bn_shortcut/batchnorm/add_1: 3d6cffef
add_21/add: 3dcd11b2
block_3a_relu/Relu: 3daccec6
block_3b_conv_1/convolution: 3df27fc7
block_3b_bn_1/batchnorm/mul_1: 3d841d38
block_3b_bn_1/batchnorm/add_1: 3d847239
block_3b_relu_1/Relu: 3d421484
block_3b_conv_2/convolution: 3d2bef61
block_3b_bn_2/batchnorm/mul_1: 3dc25c2b
block_3b_bn_2/batchnorm/add_1: 3dae21ba
block_3b_conv_shortcut/convolution: 3d934a26
block_3b_bn_shortcut/batchnorm/mul_1: 3df9921f
block_3b_bn_shortcut/batchnorm/add_1: 3db746f0
add_22/add: 3dea1117
block_3b_relu/Relu: 3dc82bdd
block_4a_conv_1/convolution: 3dc3deb7
block_4a_bn_1/batchnorm/mul_1: 3d74ad00
block_4a_bn_1/batchnorm/add_1: 3d6da060
block_4a_relu_1/Relu: 3d3a480c
block_4a_conv_2/convolution: 3cf575e8
block_4a_bn_2/batchnorm/mul_1: 3db1099c
block_4a_bn_2/batchnorm/add_1: 3db88586
block_4a_conv_shortcut/convolution: 3d09315b
block_4a_bn_shortcut/batchnorm/mul_1: 3d7b5ae8
block_4a_bn_shortcut/batchnorm/add_1: 3d89d6a9
add_23/add: 3ddffe90
block_4a_relu/Relu: 3ddbbd17
block_4b_conv_1/convolution: 3d97974e
block_4b_bn_1/batchnorm/mul_1: 3d92145e
block_4b_bn_1/batchnorm/add_1: 3d8b8f6f
block_4b_relu_1/Relu: 3d6983fe
block_4b_conv_2/convolution: 3d0bb32c
block_4b_bn_2/batchnorm/mul_1: 3e52f90b
block_4b_bn_2/batchnorm/add_1: 3e40af46
block_4b_conv_shortcut/convolution: 3cf22a94
block_4b_bn_shortcut/batchnorm/mul_1: 3e123e9c
block_4b_bn_shortcut/batchnorm/add_1: 3e0b949f
add_24/add: 3e9ad4e5
block_4b_relu/Relu: 3e9b97ab
ssd_expand_block_0_conv_0/convolution: 3dabf166
ssd_expand_block_0_conv_0/BiasAdd: 3da72bc6
ssd_expand_block_0_relu_0/Relu: 3da466f1
ssd_expand_block_0_conv_1/convolution: 3e8852b7
ssd_expand_block_0_bn_1/batchnorm/mul_1: 3da75398
ssd_expand_block_0_bn_1/batchnorm/add_1: 3d90bd83
ssd_expand_block_0_relu_1/Relu: 3d8602b0
ssd_loc_1/convolution: 3dc66b75
ssd_loc_1/BiasAdd: 3dc81336
ssd_anchor_1/Const: 3a4f5c0a
FirstDimTile_1: 3a4f5c0a
anchor_reshape_1/Reshape: 3a502da5
ssd_expand_block_1_conv_0/convolution: 3d15a7d0
ssd_expand_block_1_conv_0/BiasAdd: 3d129102
ssd_expand_block_1_relu_0/Relu: 3ca489b5
ssd_expand_block_1_conv_1/convolution: 3cec1ab8
ssd_expand_block_1_bn_1/batchnorm/mul_1: 3d96cfeb
ssd_expand_block_1_bn_1/batchnorm/add_1: 3d66bb7a
ssd_expand_block_1_relu_1/Relu: 3d6a048d
ssd_loc_2/convolution: 3d769c73
ssd_loc_2/BiasAdd: 3d7b4f97
ssd_anchor_2/Const: 3a4fe6eb
FirstDimTile_2: 3a4fe6eb
anchor_reshape_2/Reshape: 3a502da5
ssd_expand_block_2_conv_0/convolution: 3cf5d0a6
ssd_expand_block_2_conv_0/BiasAdd: 3cf4217c
ssd_expand_block_2_relu_0/Relu: 3c8c9a9f
ssd_expand_block_2_conv_1/convolution: 3c387eb8
ssd_expand_block_2_bn_1/batchnorm/mul_1: 3da96c85
ssd_expand_block_2_bn_1/batchnorm/add_1: 3d74280d
ssd_expand_block_2_relu_1/Relu: 3d5755d0
ssd_loc_3/convolution: 3d1e1bd1
ssd_loc_3/BiasAdd: 3d1d94f0
ssd_anchor_3/Const: 3a4f3074
FirstDimTile_3: 3a4f3074
anchor_reshape_3/Reshape: 3a502da5
ssd_expand_block_3_conv_0/convolution: 3c9fc25a
ssd_expand_block_3_conv_0/BiasAdd: 3c983243
ssd_expand_block_3_relu_0/Relu: 3c80ae65
ssd_expand_block_3_conv_1/convolution: 3bff0d35
ssd_expand_block_3_bn_1/batchnorm/mul_1: 3dac7b5c
ssd_expand_block_3_bn_1/batchnorm/add_1: 3d856b6b
ssd_expand_block_3_relu_1/Relu: 3d644e7a
ssd_loc_4/convolution: 3d1b6856
ssd_loc_4/BiasAdd: 3d1ea391
ssd_anchor_4/Const: 3c0faaeb
FirstDimTile_4: 3c0faaeb
anchor_reshape_4/Reshape: 3a502da5
ssd_expand_block_4_conv_0/convolution: 3c9c6d56
ssd_expand_block_4_conv_0/BiasAdd: 3ca5d4fb
ssd_expand_block_4_relu_0/Relu: 3ca5d4fb
ssd_expand_block_4_conv_1/convolution: 3bddb6af
ssd_expand_block_4_bn_1/batchnorm/mul_1: 3dd9234a
ssd_expand_block_4_bn_1/batchnorm/add_1: 3d80979e
ssd_expand_block_4_relu_1/Relu: 3d82edbc
ssd_loc_5/convolution: 3d21210a
ssd_loc_5/BiasAdd: 3d1f475b
ssd_anchor_5/Const: 3c0df37f
FirstDimTile_5: 3c0df37f
anchor_reshape_5/Reshape: 3a502da5
mbox_priorbox/concat: 3a502da5
anchor_reshape/Reshape: 3a502da5
anchor_permute/transpose: 3a502da5
(Unnamed Layer* 538) [Shuffle]_output: 3a502da5
anchor_data/Reshape: 3a502da5
permute_26/transpose: 3dcb615c
(Unnamed Layer* 547) [Shuffle]_output: 3dcb615c
loc_reshape_0/Reshape: 3dcb5e98
permute_28/transpose: 3dc81336
(Unnamed Layer* 556) [Shuffle]_output: 3dc81336
loc_reshape_1/Reshape: 3dcb5e98
permute_30/transpose: 3d7b4f97
(Unnamed Layer* 565) [Shuffle]_output: 3d7b4f97
loc_reshape_2/Reshape: 3dcb5e98
permute_32/transpose: 3d1d94f0
(Unnamed Layer* 574) [Shuffle]_output: 3d1d94f0
loc_reshape_3/Reshape: 3dcb5e98
permute_34/transpose: 3d1ea391
(Unnamed Layer* 583) [Shuffle]_output: 3d1ea391
loc_reshape_4/Reshape: 3dcb5e98
permute_36/transpose: 3d1f475b
(Unnamed Layer* 592) [Shuffle]_output: 3d1f475b
loc_reshape_5/Reshape: 3dcb5e98
mbox_loc/concat: 3dcb5e98
loc_data/Reshape: 3dcb5e98
ssd_conf_0/convolution: 3e71801a
ssd_conf_0/BiasAdd: 3e701ebf
permute_25/transpose: 3e701ebf
(Unnamed Layer* 613) [Shuffle]_output: 3e701ebf
conf_reshape_0/Reshape: 3e8a76fd
ssd_conf_1/convolution: 3e907695
ssd_conf_1/BiasAdd: 3e91e065
permute_27/transpose: 3e91e065
(Unnamed Layer* 626) [Shuffle]_output: 3e91e065
conf_reshape_1/Reshape: 3e8a76fd
ssd_conf_2/convolution: 3e2fc1b4
ssd_conf_2/BiasAdd: 3e333709
permute_29/transpose: 3e333709
(Unnamed Layer* 639) [Shuffle]_output: 3e333709
conf_reshape_2/Reshape: 3e8a76fd
ssd_conf_3/convolution: 3dfe390e
ssd_conf_3/BiasAdd: 3e005804
permute_31/transpose: 3e005804
(Unnamed Layer* 652) [Shuffle]_output: 3e005804
conf_reshape_3/Reshape: 3e8a76fd
ssd_conf_4/convolution: 3dab0542
ssd_conf_4/BiasAdd: 3daebdff
permute_33/transpose: 3daebdff
(Unnamed Layer* 665) [Shuffle]_output: 3daebdff
conf_reshape_4/Reshape: 3e8a76fd
ssd_conf_5/convolution: 3d8edb74
ssd_conf_5/BiasAdd: 3d92d8b1
permute_35/transpose: 3d92d8b1
(Unnamed Layer* 678) [Shuffle]_output: 3d92d8b1
conf_reshape_5/Reshape: 3e8a76fd
mbox_conf/concat: 3e8a76fd
conf_data/Reshape: 3e8a76fd
NMS: 3de1e2c6
NMS_1: 30810204
