TRT-7000-EntropyCalibration2
Input: 3c948aaf
conv1/Conv2D: 3dd63325
bn_conv1/FusedBatchNormV3: 3cd3893d
activation/Relu: 3cd3f547
max_pooling2d/MaxPool: 3cd3f547
block_1a_conv_1/Conv2D: 3c032f1d
block_1a_bn_1/FusedBatchNormV3: 3c8da86f
block_1a_relu_1/Relu: 3c93b950
block_1a_conv_2/Conv2D: 3ca08ebf
block_1a_bn_2/FusedBatchNormV3: 3ca07c1e
block_1a_relu_2/Relu: 3c65b9b8
block_1a_conv_3/Conv2D: 3c2ed4a6
block_1a_bn_3/FusedBatchNormV3: 3c826a8d
block_1a_conv_shortcut/Conv2D: 3c4836ed
block_1a_bn_shortcut/FusedBatchNormV3: 3c483e18
add/add: 3c634b37
block_1a_relu/Relu: 3c4505f3
block_1b_conv_1/Conv2D: 3c13853c
block_1b_bn_1/FusedBatchNormV3: 3c795398
block_1b_relu_1/Relu: 3c6be38f
block_1b_conv_2/Conv2D: 3c6755a4
block_1b_bn_2/FusedBatchNormV3: 3c4a2ade
block_1b_relu_2/Relu: 3c4a7acc
block_1b_conv_3/Conv2D: 3bb9ae85
block_1b_bn_3/FusedBatchNormV3: 3c35872c
block_1b_conv_shortcut/Conv2D: 3badde6b
block_1b_bn_shortcut/FusedBatchNormV3: 3c8ebbd1
add_1/add: 3ca4012c
block_1b_relu/Relu: 3c808cb3
block_1c_conv_1/Conv2D: 3c4501f4
block_1c_bn_1/FusedBatchNormV3: 3c489248
block_1c_relu_1/Relu: 3c57b42f
block_1c_conv_2/Conv2D: 3c951fbc
block_1c_bn_2/FusedBatchNormV3: 3c8c85a3
block_1c_relu_2/Relu: 3c8c85a3
block_1c_conv_3/Conv2D: 3be2d9ac
block_1c_bn_3/FusedBatchNormV3: 3c934741
block_1c_conv_shortcut/Conv2D: 3c2d6e60
block_1c_bn_shortcut/FusedBatchNormV3: 3c4b5525
add_2/add: 3c906ff7
block_1c_relu/Relu: 3c906ff7
block_2a_conv_1/Conv2D: 3ca6cf9b
block_2a_bn_1/FusedBatchNormV3: 3c9de39a
block_2a_relu_1/Relu: 3c5a6700
block_2a_conv_2/Conv2D: 3d40c40f
block_2a_bn_2/FusedBatchNormV3: 3c3c849a
block_2a_relu_2/Relu: 3cbcf3cd
block_2a_conv_3/Conv2D: 3b85f643
block_2a_bn_3/FusedBatchNormV3: 3c7787b9
block_2a_conv_shortcut/Conv2D: 3cd72713
block_2a_bn_shortcut/FusedBatchNormV3: 3c9ec961
add_3/add: 3caf976d
block_2a_relu/Relu: 3c98aed7
block_2b_conv_1/Conv2D: 3ce91dbe
block_2b_bn_1/FusedBatchNormV3: 3d01433f
block_2b_relu_1/Relu: 3c9dd2dc
block_2b_conv_2/Conv2D: 3d0bed21
block_2b_bn_2/FusedBatchNormV3: 3cd9cdd7
block_2b_relu_2/Relu: 3cc4292c
block_2b_conv_3/Conv2D: 3c1ac102
block_2b_bn_3/FusedBatchNormV3: 3cffaddd
block_2b_conv_shortcut/Conv2D: 3ca6da76
block_2b_bn_shortcut/FusedBatchNormV3: 3c9c5539
add_4/add: 3d355c2c
block_2b_relu/Relu: 3d392e58
block_2c_conv_1/Conv2D: 3d2436e3
block_2c_bn_1/FusedBatchNormV3: 3cfe66ae
block_2c_relu_1/Relu: 3d06feb5
block_2c_conv_2/Conv2D: 3cf379b5
block_2c_bn_2/FusedBatchNormV3: 3cf2c17f
block_2c_relu_2/Relu: 3ce28f64
block_2c_conv_3/Conv2D: 3bdd6287
block_2c_bn_3/FusedBatchNormV3: 3cfbf95c
block_2c_conv_shortcut/Conv2D: 3cc0ba29
block_2c_bn_shortcut/FusedBatchNormV3: 3cd0bfb3
add_5/add: 3d3bd9a1
block_2c_relu/Relu: 3d3e7a36
block_2d_conv_1/Conv2D: 3d490d3f
block_2d_bn_1/FusedBatchNormV3: 3cee9cd1
block_2d_relu_1/Relu: 3cf1b1a4
block_2d_conv_2/Conv2D: 3d2db336
block_2d_bn_2/FusedBatchNormV3: 3d008c98
block_2d_relu_2/Relu: 3cf57a67
block_2d_conv_3/Conv2D: 3c34a859
block_2d_bn_3/FusedBatchNormV3: 3cef8528
block_2d_conv_shortcut/Conv2D: 3cbf0d81
block_2d_bn_shortcut/FusedBatchNormV3: 3cc8d86a
add_6/add: 3d2160f8
block_2d_relu/Relu: 3d26b626
block_3a_conv_1/Conv2D: 3ce412d4
block_3a_bn_1/FusedBatchNormV3: 3cc20f3e
block_3a_relu_1/Relu: 3cc12ceb
block_3a_conv_2/Conv2D: 3d1e7937
block_3a_bn_2/FusedBatchNormV3: 3cc55de0
block_3a_relu_2/Relu: 3cb86373
block_3a_conv_3/Conv2D: 3c096c50
block_3a_bn_3/FusedBatchNormV3: 3ceaf66a
block_3a_conv_shortcut/Conv2D: 3d1609ab
block_3a_bn_shortcut/FusedBatchNormV3: 3cc7e49a
add_7/add: 3d1a44b2
block_3a_relu/Relu: 3d269e74
block_3b_conv_1/Conv2D: 3d0b3b36
block_3b_bn_1/FusedBatchNormV3: 3d070c7d
block_3b_relu_1/Relu: 3d0f280f
block_3b_conv_2/Conv2D: 3d152d59
block_3b_bn_2/FusedBatchNormV3: 3cfc7e36
block_3b_relu_2/Relu: 3ceee201
block_3b_conv_3/Conv2D: 3c0c79e4
block_3b_bn_3/FusedBatchNormV3: 3d0ab1bd
block_3b_conv_shortcut/Conv2D: 3cf9cf86
block_3b_bn_shortcut/FusedBatchNormV3: 3ce169ac
add_8/add: 3d55c71f
block_3b_relu/Relu: 3d62b514
block_3c_conv_1/Conv2D: 3d1eb097
block_3c_bn_1/FusedBatchNormV3: 3d08ef26
block_3c_relu_1/Relu: 3d11cf08
block_3c_conv_2/Conv2D: 3d29184f
block_3c_bn_2/FusedBatchNormV3: 3d01fa81
block_3c_relu_2/Relu: 3ceab748
block_3c_conv_3/Conv2D: 3beb67f8
block_3c_bn_3/FusedBatchNormV3: 3d007d99
block_3c_conv_shortcut/Conv2D: 3cfd30b1
block_3c_bn_shortcut/FusedBatchNormV3: 3ced7583
add_9/add: 3d3dab52
block_3c_relu/Relu: 3d47dd76
block_3d_conv_1/Conv2D: 3d20efef
block_3d_bn_1/FusedBatchNormV3: 3d19c08e
block_3d_relu_1/Relu: 3d22f99c
block_3d_conv_2/Conv2D: 3d808716
block_3d_bn_2/FusedBatchNormV3: 3d11619b
block_3d_relu_2/Relu: 3cd88bbe
block_3d_conv_3/Conv2D: 3c0a7485
block_3d_bn_3/FusedBatchNormV3: 3cf0ec03
block_3d_conv_shortcut/Conv2D: 3cf24a95
block_3d_bn_shortcut/FusedBatchNormV3: 3cf64388
add_10/add: 3d3644d6
block_3d_relu/Relu: 3d3c3af2
block_3e_conv_1/Conv2D: 3d13abc1
block_3e_bn_1/FusedBatchNormV3: 3d01dcc9
block_3e_relu_1/Relu: 3d1269a8
block_3e_conv_2/Conv2D: 3d1d6838
block_3e_bn_2/FusedBatchNormV3: 3d06ca1a
block_3e_relu_2/Relu: 3ceb2d17
block_3e_conv_3/Conv2D: 3c11c6ec
block_3e_bn_3/FusedBatchNormV3: 3cfef7bd
block_3e_conv_shortcut/Conv2D: 3cfec91e
block_3e_bn_shortcut/FusedBatchNormV3: 3ce7bcfa
add_11/add: 3d32d522
block_3e_relu/Relu: 3d3701f4
block_3f_conv_1/Conv2D: 3d0bde4f
block_3f_bn_1/FusedBatchNormV3: 3d039512
block_3f_relu_1/Relu: 3d14eb39
block_3f_conv_2/Conv2D: 3d081c65
block_3f_bn_2/FusedBatchNormV3: 3d0927a6
block_3f_relu_2/Relu: 3d05b81f
block_3f_conv_3/Conv2D: 3c19a7e8
block_3f_bn_3/FusedBatchNormV3: 3cebb645
block_3f_conv_shortcut/Conv2D: 3cc21834
block_3f_bn_shortcut/FusedBatchNormV3: 3ce3c019
add_12/add: 3d289aa0
block_3f_relu/Relu: 3d289aa0
block_4a_conv_1/Conv2D: 3cc8aa4f
block_4a_bn_1/FusedBatchNormV3: 3ce9d6b0
block_4a_relu_1/Relu: 3ce9d6b0
block_4a_conv_2/Conv2D: 3cc687ef
block_4a_bn_2/FusedBatchNormV3: 3cffcaa2
block_4a_relu_2/Relu: 3ce54c24
block_4a_conv_3/Conv2D: 3bf1dd92
block_4a_bn_3/FusedBatchNormV3: 3d02ce1d
block_4a_conv_shortcut/Conv2D: 3c438312
block_4a_bn_shortcut/FusedBatchNormV3: 3cc6e6cc
add_13/add: 3d2919d4
block_4a_relu/Relu: 3d20c6a2
block_4b_conv_1/Conv2D: 3d17e109
block_4b_bn_1/FusedBatchNormV3: 3cc1d1f0
block_4b_relu_1/Relu: 3cc8d3ad
block_4b_conv_2/Conv2D: 3c8a5dfe
block_4b_bn_2/FusedBatchNormV3: 3ccde0bd
block_4b_relu_2/Relu: 3cb84242
block_4b_conv_3/Conv2D: 3b96ff21
block_4b_bn_3/FusedBatchNormV3: 3cd7d354
block_4b_conv_shortcut/Conv2D: 3c9c1080
block_4b_bn_shortcut/FusedBatchNormV3: 3cba8627
add_14/add: 3d0c16a9
block_4b_relu/Relu: 3cec8dd2
block_4c_conv_1/Conv2D: 3cc067a1
block_4c_bn_1/FusedBatchNormV3: 3ce6c93f
block_4c_relu_1/Relu: 3cf785e5
block_4c_conv_2/Conv2D: 3cc0b97a
block_4c_bn_2/FusedBatchNormV3: 3d134967
block_4c_relu_2/Relu: 3cf7a827
block_4c_conv_3/Conv2D: 3bed861c
block_4c_bn_3/FusedBatchNormV3: 3db73d25
block_4c_conv_shortcut/Conv2D: 3bea52ab
block_4c_bn_shortcut/FusedBatchNormV3: 3d5dd086
add_15/add: 3dd98e85
block_4c_relu/Relu: 3df65619
fpn/l5/Conv2D: 3d628f6c
fpn/l5/BiasAdd: 3d622599
nearest_upsampling: 3d622599
fpn/l4/Conv2D: 3cccb683
fpn/l4/BiasAdd: 3ccc1b3a
fpn/add: 3d66393d
nearest_upsampling_1: 3d66393d
fpn/l3/Conv2D: 3ccb6239
fpn/l3/BiasAdd: 3cca477d
fpn/add_1: 3d698b80
nearest_upsampling_2: 3d698b80
fpn/l2/Conv2D: 3c49ceb0
fpn/l2/BiasAdd: 3c4faa8b
fpn/add_2: 3d7b75f1
fpn/post_hoc_d2/Conv2D: 3da7b528
fpn/post_hoc_d2/BiasAdd: 3da72e2d
rpn_head/rpn/Conv2D: 3dffdf7c
rpn_head/rpn/BiasAdd: 3e000caa
rpn_head/rpn/Relu: 3e030846
rpn_head/rpn-box/Conv2D: 3be5dd6e
rpn_head/rpn-box/BiasAdd: 3bc9d54f
rpn_head/transpose_1: 3bc9d54f
(Unnamed Layer* 559) [Shuffle]_output: 3bc9d54f
multilevel_propose_rois/level_2/Reshape_1: 3bc9d54f
rpn_head/rpn-class/Conv2D: 3e98e1c4
rpn_head/rpn-class/BiasAdd: 3e9c2a2d
rpn_head/transpose: 3e9c2a2d
(Unnamed Layer* 567) [Shuffle]_output: 3e9c2a2d
multilevel_propose_rois/level_2/Reshape: 3e9c2a2d
multilevel_propose_rois/level_2/Sigmoid: 3c010e6f
fpn/post_hoc_d3/Conv2D: 3dae7ee8
fpn/post_hoc_d3/BiasAdd: 3db4d310
rpn_head_1/rpn/Conv2D: 3dd78843
rpn_head_1/rpn/BiasAdd: 3ddbffb0
rpn_head_1/rpn/Relu: 3ddbffb0
rpn_head_1/rpn-box/Conv2D: 3c0aa537
rpn_head_1/rpn-box/BiasAdd: 3bfdc52e
rpn_head_1/transpose_1: 3bfdc52e
(Unnamed Layer* 581) [Shuffle]_output: 3bfdc52e
multilevel_propose_rois/level_3/Reshape_1: 3bfdc52e
rpn_head_1/rpn-class/Conv2D: 3e8c0a44
rpn_head_1/rpn-class/BiasAdd: 3e895b30
rpn_head_1/transpose: 3e895b30
(Unnamed Layer* 587) [Shuffle]_output: 3e895b30
multilevel_propose_rois/level_3/Reshape: 3e895b30
multilevel_propose_rois/level_3/Sigmoid: 3c010f06
fpn/post_hoc_d4/Conv2D: 3d92b26f
fpn/post_hoc_d4/BiasAdd: 3d9260e5
rpn_head_2/rpn/Conv2D: 3da70ac4
rpn_head_2/rpn/BiasAdd: 3da75a53
rpn_head_2/rpn/Relu: 3da8db54
rpn_head_2/rpn-box/Conv2D: 3c00a5c1
rpn_head_2/rpn-box/BiasAdd: 3bfacc37
rpn_head_2/transpose_1: 3bfacc37
(Unnamed Layer* 601) [Shuffle]_output: 3bfacc37
multilevel_propose_rois/level_4/Reshape_1: 3bfacc37
rpn_head_2/rpn-class/Conv2D: 3e4eac5a
rpn_head_2/rpn-class/BiasAdd: 3e4c035c
rpn_head_2/transpose: 3e4c035c
(Unnamed Layer* 607) [Shuffle]_output: 3e4c035c
multilevel_propose_rois/level_4/Reshape: 3e4c035c
multilevel_propose_rois/level_4/Sigmoid: 3c010dc1
fpn/post_hoc_d5/Conv2D: 3d5d608e
fpn/post_hoc_d5/BiasAdd: 3d5c91e1
rpn_head_3/rpn/Conv2D: 3d8df61f
rpn_head_3/rpn/BiasAdd: 3d8eae2d
rpn_head_3/rpn/Relu: 3d962dcd
rpn_head_3/rpn-box/Conv2D: 3bf6396c
rpn_head_3/rpn-box/BiasAdd: 3c049d76
rpn_head_3/transpose_1: 3c049d76
(Unnamed Layer* 621) [Shuffle]_output: 3c049d76
multilevel_propose_rois/level_5/Reshape_1: 3c049d76
rpn_head_3/rpn-class/Conv2D: 3e52b7bc
rpn_head_3/rpn-class/BiasAdd: 3e4a2380
rpn_head_3/transpose: 3e4a2380
(Unnamed Layer* 627) [Shuffle]_output: 3e4a2380
multilevel_propose_rois/level_5/Reshape: 3e4a2380
multilevel_propose_rois/level_5/Sigmoid: 3c010b32
fpn/p6/MaxPool: 3d5c91e1
rpn_head_4/rpn/Conv2D: 3d8080b5
rpn_head_4/rpn/BiasAdd: 3d80f28d
rpn_head_4/rpn/Relu: 3d85cab0
rpn_head_4/rpn-box/Conv2D: 3be3c1d9
rpn_head_4/rpn-box/BiasAdd: 3bff7366
rpn_head_4/transpose_1: 3bff7366
(Unnamed Layer* 638) [Shuffle]_output: 3bff7366
multilevel_propose_rois/level_6/Reshape_1: 3bff7366
rpn_head_4/rpn-class/Conv2D: 3e30d8a3
rpn_head_4/rpn-class/BiasAdd: 3e1c8b4a
rpn_head_4/transpose: 3e1c8b4a
(Unnamed Layer* 644) [Shuffle]_output: 3e1c8b4a
multilevel_propose_rois/level_6/Reshape: 3e1c8b4a
multilevel_propose_rois/level_6/Sigmoid: 3c00c507
multilevel_propose_rois: 41293cf8
pyramid_crop_and_resize_box: 3d91e0a8
box_head/fc6/MatMul: 3e01a67c
box_head/fc6/BiasAdd: 3e01aafd
box_head/fc6/Relu: 3df360a1
box_head/fc7/MatMul: 3d7eae0a
box_head/fc7/BiasAdd: 3d766c05
box_head/fc7/Relu: 3d800963
box_head/box-predict/MatMul: 3cbda0e4
box_head/box-predict/BiasAdd: 3cbc5c09
box_head/class-predict/MatMul: 3db03ba0
box_head/class-predict/BiasAdd: 3dc3b53e
box_head_softmax: 3c010a14
generate_detections: 4071bbbf
mrcnn_detection_bboxes: 41293cf8
pyramid_crop_and_resize_mask: 3f384db9
mask_head/mask-conv-l0/Conv2D: 3fdaf236
mask_head/mask-conv-l0/BiasAdd: 3fdae43a
mask_head/mask-conv-l0/Relu: 3fdae43a
mask_head/mask-conv-l1/Conv2D: 3fdebab2
mask_head/mask-conv-l1/BiasAdd: 3fdecfc2
mask_head/mask-conv-l1/Relu: 3fa4ea9d
mask_head/mask-conv-l2/Conv2D: 3f9d4a82
mask_head/mask-conv-l2/BiasAdd: 3fa2db13
mask_head/mask-conv-l2/Relu: 3f07ccc6
mask_head/mask-conv-l3/Conv2D: 3ebfe17f
mask_head/mask-conv-l3/BiasAdd: 3ebf5890
mask_head/mask-conv-l3/Relu: 3ebdec5e
(Unnamed Layer* 707) [Deconvolution]_output: 3dfd03c8
mask_head/conv5-mask/conv2d_transpose: 3dfd03c8
mask_head/conv5-mask/BiasAdd: 3df7f13d
mask_head/conv5-mask/Relu: 3df7f13d
mask_head/mask_fcn_logits/Conv2D: 40217cf4
mask_head/mask_fcn_logits/BiasAdd: 40227ce7
