TRT-7000-EntropyCalibration2
input_image: 3f6c7a97
conv1/convolution: 4112f6b8
bn_conv1/batchnorm/mul_1: 3e457d3d
bn_conv1/batchnorm/add_1: 3e579f9e
activation_1/Relu: 3e418930
block_1a_conv_1/convolution: 3e5c323a
block_1a_bn_1/batchnorm/mul_1: 3e59464a
block_1a_bn_1/batchnorm/add_1: 3e3fbc15
activation_2/Relu: 3e1bcd56
block_1a_conv_2/convolution: 3db73854
block_1a_bn_2/batchnorm/mul_1: 3e83c653
block_1a_bn_2/batchnorm/add_1: 3e6dfa5f
block_1a_conv_shortcut/convolution: 3d1aee70
block_1a_bn_shortcut/batchnorm/mul_1: 3dc95a01
block_1a_bn_shortcut/batchnorm/add_1: 3df03881
add_1/add: 3e8804aa
activation_3/Relu: 3e821349
block_2a_conv_1/convolution: 3e12a358
block_2a_bn_1/batchnorm/mul_1: 3e1fa5b0
block_2a_bn_1/batchnorm/add_1: 3e1a7aca
activation_4/Relu: 3e0ba6a7
block_2a_conv_2/convolution: 3db9506d
block_2a_bn_2/batchnorm/mul_1: 3e62ca44
block_2a_bn_2/batchnorm/add_1: 3e43bb5a
block_2a_conv_shortcut/convolution: 3d1948c7
block_2a_bn_shortcut/batchnorm/mul_1: 3d99da67
block_2a_bn_shortcut/batchnorm/add_1: 3d93157a
add_2/add: 3e599a69
activation_5/Relu: 3e2f2c4b
block_3a_conv_1/convolution: 3d7b069d
block_3a_bn_1/batchnorm/mul_1: 3debb8d3
block_3a_bn_1/batchnorm/add_1: 3dda007c
activation_6/Relu: 3dcd43be
block_3a_conv_2/convolution: 3d073ca8
block_3a_bn_2/batchnorm/mul_1: 3e32e694
block_3a_bn_2/batchnorm/add_1: 3e1721b6
block_3a_conv_shortcut/convolution: 3c985e8d
block_3a_bn_shortcut/batchnorm/mul_1: 3d8250c4
block_3a_bn_shortcut/batchnorm/add_1: 3d856d31
add_3/add: 3e2e24b0
activation_7/Relu: 3e50a21b
rpn_conv1/convolution: 3d97383c
rpn_conv1/BiasAdd: 3d965855
rpn_conv1/Relu: 3da41648
rpn_out_class/convolution: 3e2ab55b
rpn_out_class/BiasAdd: 3e2ac616
rpn_out_class/Sigmoid: 3b822364
rpn_out_regress/convolution: 3c5a5109
rpn_out_regress/BiasAdd: 3c6017f0
proposal: 3c010a14
roi_pooling_conv_1/CropAndResize_new: 3dfe2f29
time_distributed_1/convolution: 3daff828
time_distributed_2/batchnorm/mul_1: 3dfe9b08
time_distributed_2/batchnorm/add_1: 3e04a048
activation_8/Relu: 3e0b0fe1
time_distributed_3/convolution: 3c459f84
time_distributed_4/batchnorm/mul_1: 3eae4b99
time_distributed_4/batchnorm/add_1: 3ea83b30
time_distributed_5/convolution: 3c9f69ed
time_distributed_6/batchnorm/mul_1: 3e04b90c
time_distributed_6/batchnorm/add_1: 3df2918e
add_4/add: 3eb7f28f
activation_9/Relu: 3e9e41ff
time_distributed_flatten/Reshape_1: 3e9e41ff
dense_regress_td/MatMul: 3d0938c3
dense_regress_td/BiasAdd: 3d0fbd94
dense_class_td/MatMul: 3e015509
dense_class_td/BiasAdd: 3dd9af50
dense_class_td/Softmax: 3c010a14
