TRT-7000-EntropyCalibration2
Input: 3f9849a2
conv1/convolution: 414fbdef
bn_conv1/batchnorm/mul_1: 3dc81fdd
bn_conv1/batchnorm/add_1: 3d8d43bd
activation_3/Relu: 3d8df0be
block_1a_conv_1/convolution: 3e846ac1
block_1a_bn_1/batchnorm/mul_1: 3dbed742
block_1a_bn_1/batchnorm/add_1: 3daf040b
block_1a_relu_1/Relu: 3d2e4dc2
block_1a_conv_2/convolution: 3de16cbf
block_1a_bn_2/batchnorm/mul_1: 3de3bc60
block_1a_bn_2/batchnorm/add_1: 3e07f075
block_1a_conv_shortcut/convolution: 3d9caecb
block_1a_bn_shortcut/batchnorm/mul_1: 3dfd31bb
block_1a_bn_shortcut/batchnorm/add_1: 3dbdf66d
add_17/add: 3e0da762
block_1a_relu/Relu: 3e0c7e0d
block_1b_conv_1/convolution: 3ea527a5
block_1b_bn_1/batchnorm/mul_1: 3ddb72a2
block_1b_bn_1/batchnorm/add_1: 3dd7d224
block_1b_relu_1/Relu: 3d79b422
block_1b_conv_2/convolution: 3dbbc8ba
block_1b_bn_2/batchnorm/mul_1: 3e0f61a2
block_1b_bn_2/batchnorm/add_1: 3e0bda20
block_1b_conv_shortcut/convolution: 3e09c2e9
block_1b_bn_shortcut/batchnorm/mul_1: 3dc5b933
block_1b_bn_shortcut/batchnorm/add_1: 3dc22db8
add_18/add: 3e1be684
block_1b_relu/Relu: 3dfcd6cd
block_2a_conv_1/convolution: 3e81e7e7
block_2a_bn_1/batchnorm/mul_1: 3e0984ed
block_2a_bn_1/batchnorm/add_1: 3db131f8
block_2a_relu_1/Relu: 3d951c47
block_2a_conv_2/convolution: 3e9d35fa
block_2a_bn_2/batchnorm/mul_1: 3de478d9
block_2a_bn_2/batchnorm/add_1: 3ddefb4f
block_2a_conv_shortcut/convolution: 3db1fd75
block_2a_bn_shortcut/batchnorm/mul_1: 3d5cb054
block_2a_bn_shortcut/batchnorm/add_1: 3d534018
add_19/add: 3e05e4db
block_2a_relu/Relu: 3dcaff76
block_2b_conv_1/convolution: 3e4725a0
block_2b_bn_1/batchnorm/mul_1: 3dcfdbe4
block_2b_bn_1/batchnorm/add_1: 3da3fc94
block_2b_relu_1/Relu: 3d39d7dd
block_2b_conv_2/convolution: 3d73f115
block_2b_bn_2/batchnorm/mul_1: 3e210bb4
block_2b_bn_2/batchnorm/add_1: 3de30270
block_2b_conv_shortcut/convolution: 3de5db17
block_2b_bn_shortcut/batchnorm/mul_1: 3d9e82b9
block_2b_bn_shortcut/batchnorm/add_1: 3d8de5fc
add_20/add: 3e18a794
block_2b_relu/Relu: 3de2ee8c
dssd_large_conv_0_block_4/convolution: 3e16b9ba
dssd_large_bn_0_block_4/batchnorm/mul_1: 3da45a6e
dssd_large_bn_0_block_4/batchnorm/add_1: 3d85e8c7
dssd_large_relu_0_block_4/Relu: 3d678039
dssd_large_conv_1_block_4/convolution: 3deddcb5
dssd_large_bn_1_block_4/batchnorm/mul_1: 3d191c1e
dssd_large_bn_1_block_4/batchnorm/add_1: 3d29e41d
block_3a_conv_1/convolution: 3e35a283
block_3a_bn_1/batchnorm/mul_1: 3d9df4f1
block_3a_bn_1/batchnorm/add_1: 3d8c9438
block_3a_relu_1/Relu: 3d939606
block_3a_conv_2/convolution: 3de981f5
block_3a_bn_2/batchnorm/mul_1: 3dcf3674
block_3a_bn_2/batchnorm/add_1: 3dd3ee26
block_3a_conv_shortcut/convolution: 3d635b24
block_3a_bn_shortcut/batchnorm/mul_1: 3d1b1e1f
block_3a_bn_shortcut/batchnorm/add_1: 3cfdabae
add_21/add: 3dde9574
block_3a_relu/Relu: 3df93970
block_3b_conv_1/convolution: 3e4b3b43
block_3b_bn_1/batchnorm/mul_1: 3d9d1514
block_3b_bn_1/batchnorm/add_1: 3d893d5e
block_3b_relu_1/Relu: 3d528085
block_3b_conv_2/convolution: 3d7290de
block_3b_bn_2/batchnorm/mul_1: 3db967f2
block_3b_bn_2/batchnorm/add_1: 3dad1ee6
block_3b_conv_shortcut/convolution: 3dc1f345
block_3b_bn_shortcut/batchnorm/mul_1: 3db50fb9
block_3b_bn_shortcut/batchnorm/add_1: 3d918176
add_22/add: 3dea7209
block_3b_relu/Relu: 3de360e7
block_4a_conv_1/convolution: 3e19109a
block_4a_bn_1/batchnorm/mul_1: 3d69ec83
block_4a_bn_1/batchnorm/add_1: 3d5ef139
block_4a_relu_1/Relu: 3d2ce0d0
block_4a_conv_2/convolution: 3d31dd60
block_4a_bn_2/batchnorm/mul_1: 3d9b915e
block_4a_bn_2/batchnorm/add_1: 3d9875a3
block_4a_conv_shortcut/convolution: 3d8edcd7
block_4a_bn_shortcut/batchnorm/mul_1: 3d622571
block_4a_bn_shortcut/batchnorm/add_1: 3d699147
add_23/add: 3dc19558
block_4a_relu/Relu: 3d9981c8
block_4b_conv_1/convolution: 3e23c3c5
block_4b_bn_1/batchnorm/mul_1: 3d9bc215
block_4b_bn_1/batchnorm/add_1: 3d8c5320
block_4b_relu_1/Relu: 3d65935f
block_4b_conv_2/convolution: 3d371769
block_4b_bn_2/batchnorm/mul_1: 3e2e06c3
block_4b_bn_2/batchnorm/add_1: 3e1ce242
block_4b_conv_shortcut/convolution: 3d1bce70
block_4b_bn_shortcut/batchnorm/mul_1: 3df507bf
block_4b_bn_shortcut/batchnorm/add_1: 3df61833
add_24/add: 3e4d9827
block_4b_relu/Relu: 3e3787d3
ssd_expand_block_0_conv_0/convolution: 3db0ce19
ssd_expand_block_0_conv_0/BiasAdd: 3daffbee
ssd_expand_block_0_relu_0/Relu: 3da93aa7
ssd_expand_block_0_conv_1/convolution: 3dec3d68
ssd_expand_block_0_bn_1/batchnorm/mul_1: 3db3d9a8
ssd_expand_block_0_bn_1/batchnorm/add_1: 3d938013
ssd_expand_block_0_relu_1/Relu: 3d7b5666
dssd_large_conv_0_block_3/convolution: 3dcd411a
dssd_large_bn_0_block_3/batchnorm/mul_1: 3db20ce8
dssd_large_bn_0_block_3/batchnorm/add_1: 3d861a98
dssd_large_relu_0_block_3/Relu: 3d7d069f
dssd_large_conv_1_block_3/convolution: 3db992d1
dssd_large_bn_1_block_3/batchnorm/mul_1: 3da724df
dssd_large_bn_1_block_3/batchnorm/add_1: 3d5f6927
ssd_expand_block_1_conv_0/convolution: 3d09ca9a
ssd_expand_block_1_conv_0/BiasAdd: 3d0be7bb
ssd_expand_block_1_relu_0/Relu: 3d06d2ee
ssd_expand_block_1_conv_1/convolution: 3ceacd34
ssd_expand_block_1_bn_1/batchnorm/mul_1: 3dc2ba8a
ssd_expand_block_1_bn_1/batchnorm/add_1: 3d934163
ssd_expand_block_1_relu_1/Relu: 3d8b24af
dssd_large_conv_0_block_2/convolution: 3d83d3eb
dssd_large_bn_0_block_2/batchnorm/mul_1: 3d8e2ab3
dssd_large_bn_0_block_2/batchnorm/add_1: 3d6ea2ce
dssd_large_relu_0_block_2/Relu: 3d5d68aa
dssd_large_conv_1_block_2/convolution: 3da11be3
dssd_large_bn_1_block_2/batchnorm/mul_1: 3d97f15a
dssd_large_bn_1_block_2/batchnorm/add_1: 3d60f30d
ssd_expand_block_2_conv_0/convolution: 3ce521d9
ssd_expand_block_2_conv_0/BiasAdd: 3ce0659e
ssd_expand_block_2_relu_0/Relu: 3cefabb3
ssd_expand_block_2_conv_1/convolution: 3cb342eb
ssd_expand_block_2_bn_1/batchnorm/mul_1: 3db1bf63
ssd_expand_block_2_bn_1/batchnorm/add_1: 3d8d3f33
ssd_expand_block_2_relu_1/Relu: 3d70507a
dssd_large_conv_0_block_1/convolution: 3d30c90d
dssd_large_bn_0_block_1/batchnorm/mul_1: 3d8e9d31
dssd_large_bn_0_block_1/batchnorm/add_1: 3d68c02b
dssd_large_relu_0_block_1/Relu: 3d46a235
dssd_large_conv_1_block_1/convolution: 3d5d0cb5
dssd_large_bn_1_block_1/batchnorm/mul_1: 3d8d628c
dssd_large_bn_1_block_1/batchnorm/add_1: 3d53d8a7
ssd_expand_block_3_conv_0/convolution: 3c8586f9
ssd_expand_block_3_conv_0/BiasAdd: 3c84ccf5
ssd_expand_block_3_relu_0/Relu: 3c8b824d
ssd_expand_block_3_conv_1/convolution: 3c339621
ssd_expand_block_3_bn_1/batchnorm/mul_1: 3dac6e8b
ssd_expand_block_3_bn_1/batchnorm/add_1: 3d887d68
ssd_expand_block_3_relu_1/Relu: 3d824710
dssd_large_conv_0_block_0/convolution: 3d056a64
dssd_large_bn_0_block_0/batchnorm/mul_1: 3d867a5b
dssd_large_bn_0_block_0/batchnorm/add_1: 3d631a1c
dssd_large_relu_0_block_0/Relu: 3d51db2f
dssd_large_conv_1_block_0/convolution: 3d02a304
dssd_large_bn_1_block_0/batchnorm/mul_1: 3dc2b730
dssd_large_bn_1_block_0/batchnorm/add_1: 3d71c80b
ssd_expand_block_4_conv_0/convolution: 3c83c720
ssd_expand_block_4_conv_0/BiasAdd: 3c85e722
ssd_expand_block_4_relu_0/Relu: 3c8f72e6
ssd_expand_block_4_conv_1/convolution: 3c0be65a
ssd_expand_block_4_bn_1/batchnorm/mul_1: 3dd2bdf2
ssd_expand_block_4_bn_1/batchnorm/add_1: 3d89e7b6
ssd_expand_block_4_relu_1/Relu: 3d7c838f
(Unnamed Layer* 593) [Deconvolution]_output: 3c81ecc6
dssd_small_deconv_block_0/conv2d_transpose: 3c81ecc6
dssd_small_conv_block_0/convolution: 3c2b7964
dssd_small_bn_block_0/batchnorm/mul_1: 3d366655
dssd_small_bn_block_0/batchnorm/add_1: 3d2078f7
dssd_mul_block_0/mul: 3e02ca5f
dssd_relu_block_0/Relu: 3e1576e6
(Unnamed Layer* 623) [Deconvolution]_output: 3cbbd40b
dssd_small_deconv_block_1/conv2d_transpose: 3cbbd40b
dssd_small_conv_block_1/convolution: 3ceafe51
dssd_small_bn_block_1/batchnorm/mul_1: 3d7ead30
dssd_small_bn_block_1/batchnorm/add_1: 3d7086c1
dssd_mul_block_1/mul: 3e0f1585
dssd_relu_block_1/Relu: 3e26ea78
(Unnamed Layer* 653) [Deconvolution]_output: 3cb235e4
dssd_small_deconv_block_2/conv2d_transpose: 3cb235e4
dssd_small_conv_block_2/convolution: 3d81d04b
dssd_small_bn_block_2/batchnorm/mul_1: 3d81da76
dssd_small_bn_block_2/batchnorm/add_1: 3d84c406
dssd_mul_block_2/mul: 3e2cbc39
dssd_relu_block_2/Relu: 3e2cbc39
(Unnamed Layer* 683) [Deconvolution]_output: 3d386e28
dssd_small_deconv_block_3/conv2d_transpose: 3d386e28
dssd_small_conv_block_3/convolution: 3def7b66
dssd_small_bn_block_3/batchnorm/mul_1: 3d8aa4e8
dssd_small_bn_block_3/batchnorm/add_1: 3d8fb5f8
dssd_mul_block_3/mul: 3e0535d3
dssd_relu_block_3/Relu: 3dc7f1f8
(Unnamed Layer* 713) [Deconvolution]_output: 3d4a999c
dssd_small_deconv_block_4/conv2d_transpose: 3d4a999c
dssd_small_conv_block_4/convolution: 3e282941
dssd_small_bn_block_4/batchnorm/mul_1: 3dc99180
dssd_small_bn_block_4/batchnorm/add_1: 3dc597a2
dssd_mul_block_4/mul: 3df863ee
dssd_relu_block_4/Relu: 3db00991
ssd_loc_0/convolution: 3e89f9f1
ssd_loc_0/BiasAdd: 3e9ae914
ssd_anchor_0/Const: 3a4f05e2
FirstDimTile_0: 3a4f05e2
anchor_reshape_0/Reshape: 3a502da5
ssd_loc_1/convolution: 3dfc657b
ssd_loc_1/BiasAdd: 3df98ef3
ssd_anchor_1/Const: 3a4f5c0a
FirstDimTile_1: 3a4f5c0a
anchor_reshape_1/Reshape: 3a502da5
ssd_loc_2/convolution: 3ded3651
ssd_loc_2/BiasAdd: 3ded52fc
ssd_anchor_2/Const: 3a4fe6eb
FirstDimTile_2: 3a4fe6eb
anchor_reshape_2/Reshape: 3a502da5
ssd_loc_3/convolution: 3d71fb83
ssd_loc_3/BiasAdd: 3d6c9ef4
ssd_anchor_3/Const: 3a4f3074
FirstDimTile_3: 3a4f3074
anchor_reshape_3/Reshape: 3a502da5
ssd_loc_4/convolution: 3d1753e5
ssd_loc_4/BiasAdd: 3d18e9a5
ssd_anchor_4/Const: 3c0faaeb
FirstDimTile_4: 3c0faaeb
anchor_reshape_4/Reshape: 3a502da5
ssd_loc_5/convolution: 3d23e412
ssd_loc_5/BiasAdd: 3d260fc1
ssd_anchor_5/Const: 3c0df37f
FirstDimTile_5: 3c0df37f
anchor_reshape_5/Reshape: 3a502da5
mbox_priorbox/concat: 3a502da5
anchor_reshape/Reshape: 3a502da5
anchor_permute/transpose: 3a502da5
(Unnamed Layer* 823) [Shuffle]_output: 3a502da5
anchor_data/Reshape: 3a502da5
permute_26/transpose: 3e9ae914
(Unnamed Layer* 832) [Shuffle]_output: 3e9ae914
loc_reshape_0/Reshape: 3e7fa503
permute_28/transpose: 3df98ef3
(Unnamed Layer* 841) [Shuffle]_output: 3df98ef3
loc_reshape_1/Reshape: 3e7fa503
permute_30/transpose: 3ded52fc
(Unnamed Layer* 850) [Shuffle]_output: 3ded52fc
loc_reshape_2/Reshape: 3e7fa503
permute_32/transpose: 3d6c9ef4
(Unnamed Layer* 859) [Shuffle]_output: 3d6c9ef4
loc_reshape_3/Reshape: 3e7fa503
permute_34/transpose: 3d18e9a5
(Unnamed Layer* 868) [Shuffle]_output: 3d18e9a5
loc_reshape_4/Reshape: 3e7fa503
permute_36/transpose: 3d260fc1
(Unnamed Layer* 877) [Shuffle]_output: 3d260fc1
loc_reshape_5/Reshape: 3e7fa503
mbox_loc/concat: 3e7fa503
loc_data/Reshape: 3e7fa503
ssd_conf_0/convolution: 3ed4702e
ssd_conf_0/BiasAdd: 3ed8ebca
permute_25/transpose: 3ed8ebca
(Unnamed Layer* 898) [Shuffle]_output: 3ed8ebca
conf_reshape_0/Reshape: 3ed2011f
ssd_conf_1/convolution: 3e5b272a
ssd_conf_1/BiasAdd: 3e6215da
permute_27/transpose: 3e6215da
(Unnamed Layer* 911) [Shuffle]_output: 3e6215da
conf_reshape_1/Reshape: 3ed2011f
ssd_conf_2/convolution: 3ed1d761
ssd_conf_2/BiasAdd: 3ed36526
permute_29/transpose: 3ed36526
(Unnamed Layer* 924) [Shuffle]_output: 3ed36526
conf_reshape_2/Reshape: 3ed2011f
ssd_conf_3/convolution: 3e3839e6
ssd_conf_3/BiasAdd: 3e384ee3
permute_31/transpose: 3e384ee3
(Unnamed Layer* 937) [Shuffle]_output: 3e384ee3
conf_reshape_3/Reshape: 3ed2011f
ssd_conf_4/convolution: 3dd23482
ssd_conf_4/BiasAdd: 3dd68c4e
permute_33/transpose: 3dd68c4e
(Unnamed Layer* 950) [Shuffle]_output: 3dd68c4e
conf_reshape_4/Reshape: 3ed2011f
ssd_conf_5/convolution: 3d8541ea
ssd_conf_5/BiasAdd: 3d8bf72e
permute_35/transpose: 3d8bf72e
(Unnamed Layer* 963) [Shuffle]_output: 3d8bf72e
conf_reshape_5/Reshape: 3ed2011f
mbox_conf/concat: 3ed2011f
conf_data/Reshape: 3ed2011f
NMS: 3de1e2c6
NMS_1: 30810204
